<?xml version="1.0"?>
<!--
    (c) Copyright 2000-2018 CERN for the benefit of the LHCb Collaboration

    This software is distributed under the terms of the GNU General Public
    Licence version 3 (GPL Version 3), copied verbatim in the file "COPYING".

    In applying this licence, CERN does not waive the privileges and immunities
    granted to it by virtue of its status as an Intergovernmental Organization
    or submit itself to any jurisdiction.
-->
<MethodSetup Method="MLP::Electron_Upstream_TMVA">
  <GeneralInfo>
    <Info name="TMVA Release" value="4.2.1 [262657]"/>
    <Info name="ROOT Release" value="6.12/06 [396294]"/>
    <Info name="Creator" value="jonesc"/>
    <Info name="Date" value="Fri Jun 15 04:16:38 2018"/>
    <Info name="Host" value="Linux lcgapp-slc6-x86-64-2.cern.ch 2.6.32-696.18.7.el6.x86_64 #1 SMP Thu Jan 4 13:27:39 CET 2018 x86_64 x86_64 x86_64 GNU/Linux"/>
    <Info name="Dir" value="/var/pcfst/r01/lhcb/jonesc/ANNPID/results/UpgradeSim09cUp02RecoUp01/TrainMixture/TrainPhysTks-EvalPhysTks-NoReweight/GhostAccFrac0.001/PrAccF1.0/KaAccF1.0/PiAccF1.0/TMVA-Upgrade-Sim09cUp02RecoUp01/MLP/Norm/L1SF1.6/L2SF1.2/BP/NCycles750/CE/sigmoid/CVTest15/CVImp1e-16/NotUseRegulator/Electron/Upstream"/>
    <Info name="Training events" value="1800714"/>
    <Info name="TrainingTime" value="3.91282523e+04"/>
    <Info name="AnalysisType" value="Classification"/>
  </GeneralInfo>
  <Options>
    <Option name="NCycles" modified="Yes">750</Option>
    <Option name="HiddenLayers" modified="Yes">28,21</Option>
    <Option name="NeuronType" modified="Yes">sigmoid</Option>
    <Option name="RandomSeed" modified="No">1</Option>
    <Option name="EstimatorType" modified="Yes">CE</Option>
    <Option name="NeuronInputType" modified="No">sum</Option>
    <Option name="V" modified="Yes">True</Option>
    <Option name="VerbosityLevel" modified="No">Verbose</Option>
    <Option name="VarTransform" modified="Yes">Norm</Option>
    <Option name="H" modified="Yes">True</Option>
    <Option name="CreateMVAPdfs" modified="No">False</Option>
    <Option name="IgnoreNegWeightsInTraining" modified="No">False</Option>
    <Option name="TrainingMethod" modified="Yes">BP</Option>
    <Option name="LearningRate" modified="No">2.000000e-02</Option>
    <Option name="DecayRate" modified="No">1.000000e-02</Option>
    <Option name="TestRate" modified="No">10</Option>
    <Option name="EpochMonitoring" modified="Yes">True</Option>
    <Option name="Sampling" modified="No">1.000000e+00</Option>
    <Option name="SamplingEpoch" modified="No">1.000000e+00</Option>
    <Option name="SamplingImportance" modified="No">1.000000e+00</Option>
    <Option name="SamplingTraining" modified="No">True</Option>
    <Option name="SamplingTesting" modified="No">False</Option>
    <Option name="ResetStep" modified="No">50</Option>
    <Option name="Tau" modified="No">3.000000e+00</Option>
    <Option name="BPMode" modified="No">sequential</Option>
    <Option name="BatchSize" modified="No">-1</Option>
    <Option name="ConvergenceImprove" modified="Yes">1.000000e-16</Option>
    <Option name="ConvergenceTests" modified="Yes">15</Option>
    <Option name="UseRegulator" modified="Yes">False</Option>
    <Option name="UpdateLimit" modified="No">10000</Option>
    <Option name="CalculateErrors" modified="No">False</Option>
    <Option name="WeightRange" modified="No">1.000000e+00</Option>
  </Options>
  <Variables NVar="18">
    <Variable VarIndex="0" Expression="TrackP" Label="TrackP" Title="TrackP" Unit="" Internal="TrackP" Type="F" Min="3.15070007e+02" Max="4.98515300e+06"/>
    <Variable VarIndex="1" Expression="TrackPt" Label="TrackPt" Title="TrackPt" Unit="" Internal="TrackPt" Type="F" Min="2.44590244e+01" Max="9.33283125e+05"/>
    <Variable VarIndex="2" Expression="TrackChi2PerDof" Label="TrackChi2PerDof" Title="TrackChi2PerDof" Unit="" Internal="TrackChi2PerDof" Type="F" Min="4.26244624e-05" Max="2.99992013e+00"/>
    <Variable VarIndex="3" Expression="TrackNumDof" Label="TrackNumDof" Title="TrackNumDof" Unit="" Internal="TrackNumDof" Type="I" Min="2.00000000e+00" Max="4.30000000e+01"/>
    <Variable VarIndex="4" Expression="TrackGhostProbability" Label="TrackGhostProbability" Title="TrackGhostProbability" Unit="" Internal="TrackGhostProbability" Type="F" Min="7.15613365e-04" Max="9.99373674e-01"/>
    <Variable VarIndex="5" Expression="TrackFitVeloChi2" Label="TrackFitVeloChi2" Title="TrackFitVeloChi2" Unit="" Internal="TrackFitVeloChi2" Type="F" Min="1.46430923e-09" Max="9.53312683e+01"/>
    <Variable VarIndex="6" Expression="TrackFitVeloNDoF" Label="TrackFitVeloNDoF" Title="TrackFitVeloNDoF" Unit="" Internal="TrackFitVeloNDoF" Type="I" Min="-1.00000000e+00" Max="3.80000000e+01"/>
    <Variable VarIndex="7" Expression="RichUsedR1Gas" Label="RichUsedR1Gas" Title="RichUsedR1Gas" Unit="" Internal="RichUsedR1Gas" Type="I" Min="0.00000000e+00" Max="1.00000000e+00"/>
    <Variable VarIndex="8" Expression="RichAboveMuThres" Label="RichAboveMuThres" Title="RichAboveMuThres" Unit="" Internal="RichAboveMuThres" Type="I" Min="0.00000000e+00" Max="1.00000000e+00"/>
    <Variable VarIndex="9" Expression="RichAboveKaThres" Label="RichAboveKaThres" Title="RichAboveKaThres" Unit="" Internal="RichAboveKaThres" Type="I" Min="0.00000000e+00" Max="1.00000000e+00"/>
    <Variable VarIndex="10" Expression="RichDLLe" Label="RichDLLe" Title="RichDLLe" Unit="" Internal="RichDLLe" Type="F" Min="-9.99000000e+02" Max="9.59525986e+01"/>
    <Variable VarIndex="11" Expression="RichDLLmu" Label="RichDLLmu" Title="RichDLLmu" Unit="" Internal="RichDLLmu" Type="F" Min="-9.99000000e+02" Max="7.30131989e+01"/>
    <Variable VarIndex="12" Expression="RichDLLk" Label="RichDLLk" Title="RichDLLk" Unit="" Internal="RichDLLk" Type="F" Min="-9.99000000e+02" Max="8.08281021e+01"/>
    <Variable VarIndex="13" Expression="RichDLLp" Label="RichDLLp" Title="RichDLLp" Unit="" Internal="RichDLLp" Type="F" Min="-9.99000000e+02" Max="8.16336975e+01"/>
    <Variable VarIndex="14" Expression="RichDLLd" Label="RichDLLd" Title="RichDLLd" Unit="" Internal="RichDLLd" Type="F" Min="-9.99000000e+02" Max="7.02487030e+01"/>
    <Variable VarIndex="15" Expression="RichDLLbt" Label="RichDLLbt" Title="RichDLLbt" Unit="" Internal="RichDLLbt" Type="F" Min="-9.99000000e+02" Max="4.50559998e+01"/>
    <Variable VarIndex="16" Expression="InAccBrem" Label="InAccBrem" Title="InAccBrem" Unit="" Internal="InAccBrem" Type="I" Min="0.00000000e+00" Max="1.00000000e+00"/>
    <Variable VarIndex="17" Expression="BremPIDe" Label="BremPIDe" Title="BremPIDe" Unit="" Internal="BremPIDe" Type="F" Min="-9.99000000e+02" Max="4.79148388e+00"/>
  </Variables>
  <Spectators NSpec="0"/>
  <Classes NClass="2">
    <Class Name="Signal" Index="0"/>
    <Class Name="Background" Index="1"/>
  </Classes>
  <Transformations NTransformations="1">
    <Transform Name="Normalize">
      <Selection>
        <Input NInputs="18">
          <Input Type="Variable" Label="TrackP" Expression="TrackP"/>
          <Input Type="Variable" Label="TrackPt" Expression="TrackPt"/>
          <Input Type="Variable" Label="TrackChi2PerDof" Expression="TrackChi2PerDof"/>
          <Input Type="Variable" Label="TrackNumDof" Expression="TrackNumDof"/>
          <Input Type="Variable" Label="TrackGhostProbability" Expression="TrackGhostProbability"/>
          <Input Type="Variable" Label="TrackFitVeloChi2" Expression="TrackFitVeloChi2"/>
          <Input Type="Variable" Label="TrackFitVeloNDoF" Expression="TrackFitVeloNDoF"/>
          <Input Type="Variable" Label="RichUsedR1Gas" Expression="RichUsedR1Gas"/>
          <Input Type="Variable" Label="RichAboveMuThres" Expression="RichAboveMuThres"/>
          <Input Type="Variable" Label="RichAboveKaThres" Expression="RichAboveKaThres"/>
          <Input Type="Variable" Label="RichDLLe" Expression="RichDLLe"/>
          <Input Type="Variable" Label="RichDLLmu" Expression="RichDLLmu"/>
          <Input Type="Variable" Label="RichDLLk" Expression="RichDLLk"/>
          <Input Type="Variable" Label="RichDLLp" Expression="RichDLLp"/>
          <Input Type="Variable" Label="RichDLLd" Expression="RichDLLd"/>
          <Input Type="Variable" Label="RichDLLbt" Expression="RichDLLbt"/>
          <Input Type="Variable" Label="InAccBrem" Expression="InAccBrem"/>
          <Input Type="Variable" Label="BremPIDe" Expression="BremPIDe"/>
        </Input>
        <Output NOutputs="18">
          <Output Type="Variable" Label="TrackP" Expression="TrackP"/>
          <Output Type="Variable" Label="TrackPt" Expression="TrackPt"/>
          <Output Type="Variable" Label="TrackChi2PerDof" Expression="TrackChi2PerDof"/>
          <Output Type="Variable" Label="TrackNumDof" Expression="TrackNumDof"/>
          <Output Type="Variable" Label="TrackGhostProbability" Expression="TrackGhostProbability"/>
          <Output Type="Variable" Label="TrackFitVeloChi2" Expression="TrackFitVeloChi2"/>
          <Output Type="Variable" Label="TrackFitVeloNDoF" Expression="TrackFitVeloNDoF"/>
          <Output Type="Variable" Label="RichUsedR1Gas" Expression="RichUsedR1Gas"/>
          <Output Type="Variable" Label="RichAboveMuThres" Expression="RichAboveMuThres"/>
          <Output Type="Variable" Label="RichAboveKaThres" Expression="RichAboveKaThres"/>
          <Output Type="Variable" Label="RichDLLe" Expression="RichDLLe"/>
          <Output Type="Variable" Label="RichDLLmu" Expression="RichDLLmu"/>
          <Output Type="Variable" Label="RichDLLk" Expression="RichDLLk"/>
          <Output Type="Variable" Label="RichDLLp" Expression="RichDLLp"/>
          <Output Type="Variable" Label="RichDLLd" Expression="RichDLLd"/>
          <Output Type="Variable" Label="RichDLLbt" Expression="RichDLLbt"/>
          <Output Type="Variable" Label="InAccBrem" Expression="InAccBrem"/>
          <Output Type="Variable" Label="BremPIDe" Expression="BremPIDe"/>
        </Output>
      </Selection>
      <Class ClassIndex="0">
        <Ranges>
          <Range Index="0" Min="3.9139999389648438e+02" Max="4.0200142500000000e+06"/>
          <Range Index="1" Min="3.2684310913085938e+01" Max="9.3328312500000000e+05"/>
          <Range Index="2" Min="3.1828586012125015e-02" Max="2.9970419406890869e+00"/>
          <Range Index="3" Min="2.0000000000000000e+00" Max="3.7000000000000000e+01"/>
          <Range Index="4" Min="1.2935400009155273e-03" Max="9.9455094337463379e-01"/>
          <Range Index="5" Min="3.2846870112734905e-07" Max="7.1622940063476562e+01"/>
          <Range Index="6" Min="-1.0000000000000000e+00" Max="3.3000000000000000e+01"/>
          <Range Index="7" Min="0.0000000000000000e+00" Max="1.0000000000000000e+00"/>
          <Range Index="8" Min="0.0000000000000000e+00" Max="1.0000000000000000e+00"/>
          <Range Index="9" Min="0.0000000000000000e+00" Max="1.0000000000000000e+00"/>
          <Range Index="10" Min="-9.9900000000000000e+02" Max="9.5952598571777344e+01"/>
          <Range Index="11" Min="-9.9900000000000000e+02" Max="3.9865501403808594e+01"/>
          <Range Index="12" Min="-9.9900000000000000e+02" Max="3.1179399490356445e+01"/>
          <Range Index="13" Min="-9.9900000000000000e+02" Max="3.1179399490356445e+01"/>
          <Range Index="14" Min="-9.9900000000000000e+02" Max="3.1179399490356445e+01"/>
          <Range Index="15" Min="-9.9900000000000000e+02" Max="3.1179399490356445e+01"/>
          <Range Index="16" Min="0.0000000000000000e+00" Max="1.0000000000000000e+00"/>
          <Range Index="17" Min="-9.9900000000000000e+02" Max="4.7914838790893555e+00"/>
        </Ranges>
      </Class>
      <Class ClassIndex="1">
        <Ranges>
          <Range Index="0" Min="3.1507000732421875e+02" Max="4.9851530000000000e+06"/>
          <Range Index="1" Min="2.4459024429321289e+01" Max="8.9709931250000000e+05"/>
          <Range Index="2" Min="4.2624462366802618e-05" Max="2.9999201297760010e+00"/>
          <Range Index="3" Min="2.0000000000000000e+00" Max="4.3000000000000000e+01"/>
          <Range Index="4" Min="7.1561336517333984e-04" Max="9.9937367439270020e-01"/>
          <Range Index="5" Min="1.4643092294264193e-09" Max="9.5331268310546875e+01"/>
          <Range Index="6" Min="-1.0000000000000000e+00" Max="3.8000000000000000e+01"/>
          <Range Index="7" Min="0.0000000000000000e+00" Max="1.0000000000000000e+00"/>
          <Range Index="8" Min="0.0000000000000000e+00" Max="1.0000000000000000e+00"/>
          <Range Index="9" Min="0.0000000000000000e+00" Max="1.0000000000000000e+00"/>
          <Range Index="10" Min="-9.9900000000000000e+02" Max="7.6250503540039062e+01"/>
          <Range Index="11" Min="-9.9900000000000000e+02" Max="7.3013198852539062e+01"/>
          <Range Index="12" Min="-9.9900000000000000e+02" Max="8.0828102111816406e+01"/>
          <Range Index="13" Min="-9.9900000000000000e+02" Max="8.1633697509765625e+01"/>
          <Range Index="14" Min="-9.9900000000000000e+02" Max="7.0248703002929688e+01"/>
          <Range Index="15" Min="-9.9900000000000000e+02" Max="4.5055999755859375e+01"/>
          <Range Index="16" Min="0.0000000000000000e+00" Max="1.0000000000000000e+00"/>
          <Range Index="17" Min="-9.9900000000000000e+02" Max="4.7914838790893555e+00"/>
        </Ranges>
      </Class>
      <Class ClassIndex="2">
        <Ranges>
          <Range Index="0" Min="3.1507000732421875e+02" Max="4.9851530000000000e+06"/>
          <Range Index="1" Min="2.4459024429321289e+01" Max="9.3328312500000000e+05"/>
          <Range Index="2" Min="4.2624462366802618e-05" Max="2.9999201297760010e+00"/>
          <Range Index="3" Min="2.0000000000000000e+00" Max="4.3000000000000000e+01"/>
          <Range Index="4" Min="7.1561336517333984e-04" Max="9.9937367439270020e-01"/>
          <Range Index="5" Min="1.4643092294264193e-09" Max="9.5331268310546875e+01"/>
          <Range Index="6" Min="-1.0000000000000000e+00" Max="3.8000000000000000e+01"/>
          <Range Index="7" Min="0.0000000000000000e+00" Max="1.0000000000000000e+00"/>
          <Range Index="8" Min="0.0000000000000000e+00" Max="1.0000000000000000e+00"/>
          <Range Index="9" Min="0.0000000000000000e+00" Max="1.0000000000000000e+00"/>
          <Range Index="10" Min="-9.9900000000000000e+02" Max="9.5952598571777344e+01"/>
          <Range Index="11" Min="-9.9900000000000000e+02" Max="7.3013198852539062e+01"/>
          <Range Index="12" Min="-9.9900000000000000e+02" Max="8.0828102111816406e+01"/>
          <Range Index="13" Min="-9.9900000000000000e+02" Max="8.1633697509765625e+01"/>
          <Range Index="14" Min="-9.9900000000000000e+02" Max="7.0248703002929688e+01"/>
          <Range Index="15" Min="-9.9900000000000000e+02" Max="4.5055999755859375e+01"/>
          <Range Index="16" Min="0.0000000000000000e+00" Max="1.0000000000000000e+00"/>
          <Range Index="17" Min="-9.9900000000000000e+02" Max="4.7914838790893555e+00"/>
        </Ranges>
      </Class>
    </Transform>
  </Transformations>
  <MVAPdfs/>
  <Weights>
    <Layout NLayers="4">
      <Layer Index="0" NNeurons="19">
        <Neuron NSynapses="28">
          -5.3897188429922568e-02 2.0641242276500908e+00 6.2023968793274631e-01 2.0560197921310412e+00 -1.8827441504001732e+00 -9.6334312422007997e+00 -1.1089448723768021e+00 3.1518255771859573e+00 -5.6179032680889911e-02 3.7267147678353401e+00 -3.8562729900685006e-01 -1.3121165094392862e-02 -5.0175561004953249e+00 -9.8974376877007619e-01 1.5861944841837891e-01 8.5956888307198156e+00 -6.1328587709485261e-01 2.1281177913536120e+00 7.1690953531969182e-01 1.3082693663891480e+00 -1.7799427832035868e+00 1.2284805595602430e+00 5.1828590387149998e-01 4.9239070975007770e-01 -1.7762189609002679e+00 1.8017746851956712e-01 3.1712056098564343e+00 -5.5897036705155623e-01 
        </Neuron>
        <Neuron NSynapses="28">
          -1.6512505987854986e+00 1.8087416233707773e-01 -7.5195928422557889e-01 1.5612147757135841e+00 -1.0881046560130834e+00 -9.6429906787632813e+00 -2.4516791236056473e-01 -1.0210163416098456e-02 -4.7063959337834371e-01 7.0512801990156975e+00 -7.1901850672981971e-01 1.3901187962242689e+00 -2.5434716971441542e+00 7.3343110363909014e-01 2.6566609856819379e+00 9.9589465879189110e+00 -5.2986900156280348e-01 -1.2953434960530934e+00 1.3344827563050767e+00 -1.1464531849498247e-01 4.7860437832207015e-01 3.0645530848791860e+00 1.9166364385640107e+00 1.2570537243944508e+00 -1.3987593834965264e+00 1.9154716184162643e+00 -1.3345667841151787e+00 -5.5646466572959852e-01 
        </Neuron>
        <Neuron NSynapses="28">
          -1.2750753622324240e+00 -2.8662562965331109e+00 1.8168874291750206e+00 2.3765047511718715e+00 7.4962300566064544e-01 -1.3965357846297497e+00 -2.5001765912991164e-01 3.4955091566279778e-01 6.6891546509860589e-01 1.6285739371687674e-02 1.0624773878974025e+00 -1.3593187880966957e+00 -1.3175264599980896e+00 -1.5501059970543749e+00 2.2609042443602070e-01 -5.3852108559970224e-01 4.6514773847373803e-01 8.6033535464343824e-01 1.0753076789702500e+00 3.5783221566240708e-01 -1.2184758687757857e+00 -8.2164077588538920e-01 4.9613119373516801e+00 -6.6606236362123661e-01 2.7305824805247580e-01 2.7280514697723439e+00 4.4762119219642887e-01 -4.1718947156776287e-01 
        </Neuron>
        <Neuron NSynapses="28">
          -1.2839051997268855e+00 -1.0784421693985982e+00 3.7620150957828238e+00 -1.0163685780622127e+00 5.9520312381845342e-01 3.2210774095520889e+00 9.6270783336512578e-01 -1.7604819235182445e+00 4.5602350017406579e+00 -5.3513102795128598e+00 1.1711638945352445e+00 2.7777676785999112e+00 5.8242927094789758e+00 -7.3781258941374741e+00 -7.0156634292029141e-01 4.6235171709485057e+00 -3.2915716711202907e+00 -4.0859086809066429e+00 8.6934997192248653e-01 -8.9670214265081216e-01 2.3422552087370541e+00 2.1364416588211133e+00 -1.4291824736342922e+00 -1.0606869771430825e+00 1.0761328423516079e+00 2.1815654957519914e+00 -8.9926163450067331e-01 3.5576085015354830e-01 
        </Neuron>
        <Neuron NSynapses="28">
          8.6688021062424798e-03 7.7198494791851102e-01 -1.0440980327366551e+00 1.6756217296217508e+00 1.7806141360576979e+00 -1.6519810823327682e-01 6.2198670253715660e-01 -2.3068552176633641e+01 4.8306361649343538e-01 1.5028375361239448e+00 1.1512524816181262e+00 1.6231878853947093e+00 4.0002829010426204e+00 1.3477152749850638e+00 8.0691714128573999e-01 -9.8497955977078930e-02 -3.0223048857436758e+00 -7.5790064105459620e-01 2.7080663493160639e-01 -2.2851606733354850e+00 1.1068615712983523e+00 -2.4391139962641102e+00 -2.9365179094684679e-01 2.4910194848586791e+00 3.8897205783109881e+00 -3.6646738913438743e+00 -5.3913245642135388e-01 1.8090072403451427e+00 
        </Neuron>
        <Neuron NSynapses="28">
          1.3508734275909675e+00 -1.0000976191647175e+00 -3.2244106952168656e+00 6.7054313709626634e-01 -3.0228063798969633e+00 3.2609092783209022e+00 1.0838494814858473e+00 -2.5450320788480858e+00 -1.8204861602213689e+00 -1.5611138073481712e+00 -1.5434517756873338e+00 2.7491697536965265e-01 6.2872225529913672e+00 1.3148928113892193e+00 4.9982779772666103e-01 1.0587149921514016e+00 2.7122108093059030e+00 1.4247695786837020e+00 1.1442612643216208e+00 -2.6017760909916623e+00 3.5267681189820843e+00 -6.5296570815016952e-01 7.1616094971283406e-01 -2.3527281741819195e-01 -4.2471396739011830e-01 1.1767542880378090e+00 -1.0768434862766822e+00 1.4615412032844461e+00 
        </Neuron>
        <Neuron NSynapses="28">
          -1.0499205302697643e+00 -1.1903712534177735e+00 -1.4814317834522663e+00 8.8292146168213270e-01 -5.0328432210151230e-01 -3.3414515740596169e+00 2.6735651093538739e+00 1.9028824258944042e+00 -2.4943406702046298e+00 7.2823907159892292e+00 -1.2597456063793941e+00 -2.3621880275036120e+00 -6.6288177750319761e+00 3.7637875900420199e+00 1.7182973936372530e+00 -5.0078682003237454e+00 2.7940012238723142e+00 -2.1577633594265997e+00 4.5456844409535252e-01 5.1489598418685134e-01 4.3121312178736615e-01 -3.2975271357103639e+00 2.1172652323880885e+00 8.7411877716177300e-01 3.3488135718280430e+00 1.7092512056724811e+00 9.8652959906160975e-01 -7.0752230936235683e-01 
        </Neuron>
        <Neuron NSynapses="28">
          -1.7131008115431761e+00 1.1729388399867804e+00 3.8181355367127319e+00 -1.5532565457025596e+00 5.9498105076669849e-01 7.8107712424151421e+00 9.2553964339504335e-01 -6.4156566025417092e+00 2.6351986839609718e+00 -4.2083927825894261e+00 1.2559430733005976e+00 5.2930608425550620e-02 5.4199012564625368e+00 3.4848035328535987e-01 -7.4031216150077517e-01 -2.3371295887985553e+00 -3.5062340384591946e+00 -8.1834540267111666e-01 1.1073163033942903e+00 8.4743697827355091e-01 2.8379726898214206e+00 1.1013098878432233e+00 1.3160630798223314e+00 -1.8596376077769263e+00 -1.2079885482225039e+00 -3.1508524549576500e-01 -1.6782726477059120e+00 1.5553247569000711e-01 
        </Neuron>
        <Neuron NSynapses="28">
          1.9169214719946068e+00 -1.3897147004658725e+00 2.1485905915009612e-01 -2.8701267362746563e-01 7.1316186392003600e-01 2.2643984473549056e-01 7.3976916486630614e-02 -1.4573094043548768e-01 -1.8511086572136845e-01 -4.7691942662826986e-01 -1.5189962994217465e-01 -1.4576850529555216e+00 4.0974753119269708e-02 -5.2804748100160004e-02 -2.7282844981954666e+00 3.0672142228694915e-01 4.1643119660193834e-01 -1.9201183962728566e-01 -1.3882474660926805e+00 5.1327354272033765e-01 -8.4717648746197013e-02 7.2371604279286172e-01 4.3028903472314167e-01 -3.4594284544828252e-01 8.5955684262319498e-01 -1.5595359178205814e-01 -4.5873731568441484e-01 -8.4912794775683920e-01 
        </Neuron>
        <Neuron NSynapses="28">
          1.9517206175421893e+00 2.3959634319961838e+00 4.7170626997371373e-01 -1.0187686582163227e+00 2.4708533709491423e-01 4.5349615334184690e-01 -2.1025135458352757e+00 -1.1807264704694259e-01 -8.6664634006481300e-01 3.5370040518825002e-01 7.5241502317556408e-01 -4.3526841186917170e-01 2.0432093839316581e-01 -7.7903630763540732e-01 -3.3449296603935545e+00 -5.1386217317709415e-01 -2.5774123314958763e+00 -1.6899619588759722e+00 -4.7184639135833562e-01 8.3060519178541337e-01 5.8520458216872173e-01 1.7079611818007540e-01 2.3339580550779518e-01 -1.0835189045957341e+00 4.4919240840427825e+00 5.9419717786071102e-01 -6.8311294130303024e-01 -5.9875335424245182e-03 
        </Neuron>
        <Neuron NSynapses="28">
          -2.6305567410469116e-01 -4.6779774563728621e-01 -2.6390429268113742e+01 -7.1514048661761942e-01 -1.1185100080546462e+01 -4.8724404008882971e+01 -6.0026377181531587e-01 2.2971618840651573e+01 -8.2481834116532529e+00 4.0275184483355211e+01 -1.6242418251098282e+01 6.1354356740442439e-01 -2.7815827848791610e+01 7.2230419360065135e+00 2.0896041308596098e+00 -3.7251962765997874e+01 6.3260970168957869e+00 6.1847914851603714e-01 -2.3482234658175858e+00 -3.3690122417785999e+00 -6.4148561432180662e+00 -7.9932246941809177e+00 9.3291393924713812e+00 -1.1332889666649393e+00 -1.0198330399730691e+00 5.6455804569204193e-01 -2.4199570696349618e+01 -2.0839905717441947e+00 
        </Neuron>
        <Neuron NSynapses="28">
          -9.4504934282204511e-01 -1.4528766957144679e+00 5.8379455815193140e+00 -1.5168248079346796e+00 1.5820110457462173e+00 1.4031527588465933e+01 1.1063260295717683e+00 -1.2617922788427078e+01 7.7062384310525198e+00 -1.4035323638203879e+01 5.6173503393257720e+00 1.2637407521328585e+00 5.5305298117460930e+00 -4.3899263106897699e+00 -1.8637690560610976e-01 4.2156863595930166e-01 -2.6045201810164684e+00 2.4877178366352766e+00 7.8644403642281169e-01 1.6591610250598452e+00 6.9993040795162520e-01 1.9078570856699564e+00 -4.8882394770170627e+00 5.0163911653502313e-01 -1.6085766618914477e+00 -1.4989699756268955e+00 -2.8129089929681563e+00 5.2947193779251334e-01 
        </Neuron>
        <Neuron NSynapses="28">
          2.3895659542377712e-01 1.2935943128878713e+00 3.2981864708564723e+00 -3.4142115273555662e-01 1.8765650031686082e-01 6.2858832409334098e-02 2.6966235465026061e+00 -6.3941563123159320e+00 -1.0828354140109453e+00 -3.4043264665119133e+00 1.0259382825733385e+00 2.6327772890647927e-01 4.2020674686229027e+00 -2.9980770129626384e+00 1.9878167854900235e+00 1.6756223654153757e+01 -1.1570854073666470e+00 -7.0392729232013307e-01 -1.4614535794858461e+00 -2.2959410467694759e+00 -6.6902345540144970e-01 2.9437064658248357e+00 -1.3287698188382138e+00 -1.2708091140684155e+00 7.1163068443494304e-01 -1.9869031634292023e+00 5.6456021812751311e+00 -2.3444507810590309e+00 
        </Neuron>
        <Neuron NSynapses="28">
          9.2538262916157343e-01 -1.3642142695735395e+00 7.7059217920691050e-02 -7.3668901446438828e-01 -4.0108732647890222e-01 -1.7389108892367564e+00 1.8272546703204184e+00 -6.2422511068683404e+00 -1.9957276783256170e+00 8.2864271055379746e-02 1.7609443763821611e+00 4.8889509547725502e-01 2.6821243093329490e+00 -5.9993721926934296e-01 2.9356079064745284e+00 1.4285870262783206e+01 -2.6743595572917105e+00 -1.0265975901438575e+00 -2.2564778081998491e+00 6.3516314633082316e-01 1.3344291374860624e+00 9.1062418872975004e-01 4.6039196233230839e-01 8.3287653263212014e-01 1.5023299064044242e+00 -1.0518293284022722e+00 7.8622654290693186e+00 2.2674942855710176e-02 
        </Neuron>
        <Neuron NSynapses="28">
          -1.9822183003613860e+00 -2.8246344549773900e-01 -2.1148391034163741e-01 7.5134035402502863e-01 7.0010333859373730e-01 -5.8306560818812425e-01 2.4682189598039104e+00 -5.1536303576060600e+00 1.1210490403088902e+00 1.2179429698812534e+00 8.7416826799751235e-01 -1.0344059581498641e+00 3.6083573269010336e+00 -4.0046863540675037e+00 2.2128746670357491e+00 1.4785063145172414e+01 -2.1900862193615445e+00 -1.1461672612957032e+00 -5.8795654791190266e-01 -1.4500160129455089e+00 6.9510180315650494e-01 -1.5437507681229523e+00 -2.5294170285000783e-01 -3.1839371236534703e-01 1.3733787475462322e+00 1.8248339733053409e+00 7.5968834325407366e+00 -1.2633816522550998e+00 
        </Neuron>
        <Neuron NSynapses="28">
          -6.3276754534111812e-01 4.6631942196675874e-01 1.6966104781082161e+00 -2.0242533645276635e+00 -1.3949280643036013e+00 -3.1878104824638056e+00 -5.2385998472196449e-01 -6.9485330687789872e+00 -2.8316797843735406e+00 1.6817788593393288e+00 -1.8106154787867237e-01 -1.8168699712560021e+00 2.5711246998406062e-01 -2.0439073962092329e+00 4.2344323952696836e+00 1.4509504220835332e+01 -5.7174641860506603e-01 -1.0452508789325996e+00 -2.4984952867790300e+00 -5.1429308849599875e-01 -9.6717212117510620e-01 -1.5107604689494452e+00 -1.2311643643291741e+00 -1.2958046125752840e-01 -1.8370372074166679e+00 2.0536268052015272e+00 7.2733268970131268e+00 -6.2535965693600071e-01 
        </Neuron>
        <Neuron NSynapses="28">
          -1.7094677705550421e+00 -8.9613335184031906e-01 2.2446475219457191e+00 -8.9497936577825088e-01 1.0504528498637833e+00 5.4119576045003930e+00 1.2784300959048105e+00 -3.0610937607053366e+00 1.6850631691123241e+00 -4.6710974535617247e+00 3.0539205027234049e+00 2.6422920173692925e+00 2.0708610744796370e+00 5.7619072863524134e-01 -8.8936008943166922e-01 2.9931181843539396e+00 2.2792770153467141e+00 5.2606934309472952e-01 -9.0151327558011329e-01 -4.8226917919924800e-01 1.1721833739567979e-02 2.9152614997036581e+00 -1.2771099556356946e+00 -6.1787821595426551e-01 -2.1548784880086611e+00 1.1293838951484154e+00 1.7814404632787378e-01 -1.5779754424469705e+00 
        </Neuron>
        <Neuron NSynapses="28">
          -1.4414837311665873e+00 -1.0376213329598722e+00 -2.1908521381428603e+00 1.1460782633081419e+00 -1.4427426187201422e+00 -5.4529738152397069e+00 1.3328492933364706e+00 3.1798732135688526e+00 -1.3407069342411677e+00 4.7418455362677028e+00 -2.5703137511079794e+00 -7.6058066212091946e-01 -1.1859138346847995e+00 2.5108450272646716e+00 -1.1050226776821936e-02 -2.8017170160772058e+00 2.2930933344864721e-01 -1.6524190523003401e+00 -3.5960798144633310e-01 -1.0123396653271559e+00 -2.4260241053170009e-01 -5.0979062484342919e-01 1.5234348240249123e+00 3.6563566286315463e-01 -2.4407836572335326e+00 1.4843530700171583e+00 4.3869729384335615e-02 7.0492947431843722e-01 
        </Neuron>
        <Neuron NSynapses="28">
          -4.2805485791155617e-01 -7.8905419991106862e-01 4.9917578575114483e+00 -1.5384395868895575e+00 1.7072660877929260e+00 6.2232886459640477e+00 1.5435071509241789e+00 -2.6632601633398396e+00 6.8976117901017320e-01 -5.3880686251643155e+00 2.3098171116940271e+00 -8.3075380187972647e-01 2.8350488811858701e+00 5.6159222486692217e-01 -1.0266219607652953e+00 -2.5835464702669202e+00 -1.5479914321892851e-01 -1.9643777958719753e+00 8.6495534978966282e-01 -1.6180152757178552e+00 2.5706292151594847e+00 9.1953183562964602e-01 3.4934511566547649e-01 1.7426839448782538e+00 1.1578128463862927e+00 -2.5403973862394169e+00 -1.1992449912027670e+00 -1.2764006897121010e+00 
        </Neuron>
      </Layer>
      <Layer Index="1" NNeurons="29">
        <Neuron NSynapses="21">
          2.9797361266896034e-02 -1.5631332087753460e+00 -2.7928519075973912e-01 -2.2735381813685593e-01 -1.4351272465020803e-01 -6.1667838768798378e-01 -8.1784467245254755e-01 -2.4894924562300553e+00 -1.4881256416848445e+00 -4.1396703844026750e-01 -1.8651015825378112e+00 -1.6384276682466630e+00 2.5125425132940988e-02 1.0232499784316735e+00 1.9941691618149679e-01 -1.5449680260074110e+00 1.9706776047297814e+00 -6.7436292678424237e-01 1.8864704510768771e+00 8.0423331117021091e-01 -1.2477375854779316e+00 
        </Neuron>
        <Neuron NSynapses="21">
          -1.1525775155617848e+00 -1.7245530199108405e+00 -2.0905783493208507e+00 -1.1735595303387414e+00 -1.4858342375724318e+00 2.5857332750378075e+00 -1.9327472320259385e+00 1.3248936001782907e+00 1.4482198424898294e+00 1.3672341461096507e+00 -4.0359365233318101e-01 -2.4512398040673955e-01 -5.3039885252445973e-01 -7.2416473273059112e-01 -1.7501132544366145e+00 -7.7255438775539675e-01 -1.4628641262333661e+00 1.3371316251031564e+00 9.2688920368528649e-01 2.4123268843541565e-01 1.0303943495634429e+00 
        </Neuron>
        <Neuron NSynapses="21">
          1.5448241375816947e+00 1.3178059579976428e-01 -4.7922011923927262e-02 -3.4509076166618309e+00 3.9531029033160475e-01 -2.3186882706376521e+00 3.0855032076134248e-01 -1.1239770030291698e+00 4.6799518485515201e-01 -2.3855025497532920e+00 -2.3266948932329914e+00 -1.8545744454262427e+00 -5.5911896850644527e-01 4.8157869854569896e-01 -1.7914044085085605e+00 8.6790510217962924e-01 -3.6414034436421501e+00 2.9696415716256039e+00 3.1147313887243779e+00 6.1155967257940791e-01 -1.9374906993906429e+00 
        </Neuron>
        <Neuron NSynapses="21">
          -1.5444431229254709e+00 1.9188020729779394e+00 -1.8537570210823175e+00 -1.3451297383296796e+00 -1.0232386963342259e+00 1.7855878128957416e+00 1.1996221224833374e+00 1.5569387279725471e+00 -1.7009491339189786e+00 7.4911591015530199e-01 -4.1305982727497681e-01 -1.8972635124857612e-01 -1.5607769735985602e+00 -3.6606898682293165e-01 8.4437917745616742e-01 -6.7008953361774051e-02 2.4109836030424980e+00 -2.9800272803213868e-01 5.2752012435866753e-02 -1.0965103293684704e+00 1.3770593085626324e+00 
        </Neuron>
        <Neuron NSynapses="21">
          1.1094910903426367e+00 1.9448922681520715e+00 -9.5761797420969208e-01 -2.3723357834691736e+00 1.1790633204280088e+00 -8.7690946282030935e-01 1.1050022075598338e+00 -1.7758422331334076e+00 -1.9545583636277613e+00 -2.3480857758689768e+00 6.2997812206291315e-01 3.4595090193957456e-01 -1.5401784598006791e+00 4.7460749243917452e-02 -4.3260981049222275e-01 -7.1358076416548033e-01 9.8806239942465468e-01 -1.8265945307323856e+00 5.0687768682280576e-01 -7.2770419148549814e-02 -1.1457047324917065e+00 
        </Neuron>
        <Neuron NSynapses="21">
          2.0403300326307350e+00 4.6070708833556946e+00 -2.0833932923259662e+00 -4.8889224283967725e-01 -2.4022500692036148e+00 1.5926186537435469e+00 1.0324309763598369e+00 -4.2041223589158587e+00 -2.5672827598228287e+00 -4.9738279053079708e+00 2.5157245596061575e+00 7.1749907527228718e-01 1.9510572956635901e+00 -3.4847030304016258e-01 -1.8413016110425251e+00 -2.0461604140448002e+00 -2.4799532869821546e+00 2.8537141616642279e+00 3.3967974107130450e-01 -3.6235038512128487e-01 -1.1734290580497140e+00 
        </Neuron>
        <Neuron NSynapses="21">
          3.4347905087958180e-01 -1.0026657245596355e+00 -1.7216869787861511e+00 4.2386078836027625e+00 5.2381591849004139e-01 -2.8259215678492700e+00 -1.1794969406606308e+00 -7.6169366768635394e-01 -8.6916854470710947e-01 4.2498398297859330e-01 8.9779021022453886e-01 1.9462115766290533e-01 -1.7841006262300749e+00 -2.0157174370568334e+00 -2.0322570723355127e+00 -7.4735426570614272e-01 9.6085586029335490e-01 -3.6052196467380928e+00 -1.2035340905551974e+00 -8.6672555977638022e-01 1.0183583701537908e+00 
        </Neuron>
        <Neuron NSynapses="21">
          -1.5513847323927494e+00 -5.6355415488252003e-01 1.4739533655192014e+00 4.4413122384056862e+00 -3.9917081674661978e+00 2.1539749260622849e+00 -1.0787004679921441e+00 1.5997290848141632e+00 -6.1137147721933620e-02 -4.3032066270974889e+00 -9.9246750809481110e+00 3.9161893028855921e-01 6.1248756004499882e-01 -5.2755808449666847e-02 1.8587325034637663e+00 6.5238674622385484e-01 -1.9371167660589967e+00 -8.8300473665501289e-01 -2.6996099690667443e+00 -2.4842613185935640e+00 1.6226736697532433e+00 
        </Neuron>
        <Neuron NSynapses="21">
          1.1187169323772672e+00 2.2989015597217279e+00 6.0444706643934698e-01 1.1974286742030007e+00 -1.4779632217007956e+00 -3.1502525520705271e+00 -8.6524598729144031e-01 -1.2110789381261249e+00 4.0359497505039349e-01 2.0410673550936057e-01 -1.4517294212125083e+00 6.0039305970099888e-01 1.1924059703498477e+00 -1.7687811439026169e+00 -1.3589409417530844e+00 5.8558865343149180e-01 -5.6133207608727553e-01 -2.0709402482238999e+00 -2.4551892703955741e-01 -7.8750345622597739e-01 -7.1451059345506485e-01 
        </Neuron>
        <Neuron NSynapses="21">
          -7.7470516686021951e-01 -4.9681558454134827e+00 2.2448812897767348e-01 3.2798599017187406e+00 -2.7254492571263456e-01 7.3364999371151507e-01 -1.4580657634334588e+00 3.5760559466435136e+00 2.0676170000091223e+00 1.0050357090381243e+00 -8.1285339585523209e-01 8.9231631449560500e-01 1.1197259478377002e+00 -1.3624675327175264e+00 5.6012305447173238e-01 3.5766476503544464e-01 4.1190070279943072e+00 -3.3899412923222862e+00 4.5634889039201078e-02 -2.4394142920197176e-01 1.8279606983084642e+00 
        </Neuron>
        <Neuron NSynapses="21">
          -9.0309621073795865e-01 1.8428311546735709e-01 -1.9802778447827878e+00 -1.4888957287571907e+00 9.6876647341155619e-01 5.5591639162278939e-01 -1.7780663822880929e+00 -1.7293358741928062e+00 -2.0600978296574719e+00 7.1876923705935991e-01 5.0239457989135961e-01 1.3530124385641162e+00 1.4492375044639835e-01 -9.3993409829038838e-02 -6.7473489625177506e-03 -7.9726688018337530e-02 -1.6112039417176192e+00 1.4009874901375126e+00 1.6236336122317703e+00 3.0434537496273312e-01 1.5842147621736657e-01 
        </Neuron>
        <Neuron NSynapses="21">
          -9.4955611080288482e-01 1.9154351816197694e+00 -1.1670122142236657e-01 -7.6701529938251675e-02 -1.4172156973956167e+00 -1.3197032336520078e+00 -9.1035202760436440e-01 -1.4177478624969955e+00 4.0888339892459230e-01 1.2699123920807309e+00 1.4176524574298637e+00 -2.3736402959065872e-01 -1.0577350538687411e+00 -1.6174756189668944e+00 1.4851098301631205e+00 -4.3192316597087117e-02 -9.8280113968072846e-02 -1.5346666138306591e+00 1.1097303487416470e+00 1.1450839573079381e+00 -1.1350376044324692e-01 
        </Neuron>
        <Neuron NSynapses="21">
          -1.0837308932345291e+00 1.5755944006863545e+00 -1.7976737609738300e+00 -4.0754922135822209e+00 3.6536877755469627e-01 -1.9067808519788113e-01 1.4152626340485130e+00 -1.9484933085071872e+00 -1.0205582479776845e+00 -4.8948955914551395e-01 4.2924814306537913e+00 6.8490773516636139e-01 -1.0179737677255322e-02 2.4864410939346451e+00 9.1606957655512322e-01 -1.1546924929470133e+00 3.0370182357947546e+00 -5.3481450136340147e-01 1.5988221617046894e+00 -1.0381013979291349e+00 -3.1596044768706166e+00 
        </Neuron>
        <Neuron NSynapses="21">
          -7.7733649180254494e-02 -3.7208852909267892e-01 -2.0186448412205329e+00 1.6993493054990050e+00 -7.4023456898812290e-01 2.0530535214719516e+00 -2.2140285772846533e+00 -1.6838270998174105e+00 -1.1486891545787770e-01 -2.5524284052763453e+00 -1.7360457648762162e+00 -1.3365865229755054e+00 -4.5756320057173566e-01 2.3314987707785864e-01 6.6053706589970521e-02 -2.0262674542287327e+00 2.7568641986881408e+00 -1.4446992872803703e+00 -3.3837937012150627e+00 9.7053075227545182e-01 -6.1329799639906502e-01 
        </Neuron>
        <Neuron NSynapses="21">
          4.6487125825156972e-01 -4.1163780757546348e-01 2.7757786102508836e-01 1.0126766481821463e-01 -7.1484335563165025e-01 1.7467801955592202e+00 1.9956276373454798e+00 -7.1423354109240900e-01 -1.1443295747114928e+00 -7.3319954355941908e-01 2.4050297596200316e+00 -1.9028411567722889e-01 7.8120171547343276e-01 -2.0704146631782243e+00 -2.5625324063221488e+00 4.4462820362166283e-01 -2.5112012640636299e+00 -1.9348404790456635e+00 -4.9275579907038320e+00 3.5435002297291091e-01 -1.4005083057028505e+00 
        </Neuron>
        <Neuron NSynapses="21">
          -1.5488828248623998e+00 -8.0993660432042898e+00 1.6137137062068105e-01 -1.0965474004218342e+01 -1.2720114432172522e+00 -4.7998155252493269e-01 3.4773327370182563e+00 2.7887399898364706e+00 1.1508296502488440e+00 -1.0223428552410025e+00 2.9637764542050036e+00 7.2950446975972610e-02 1.0485255537226712e+00 1.0762348678912796e+00 6.5478020277429783e-01 7.7963647709350881e-02 6.0372738497802725e-01 3.1417309742510482e+00 7.9767028176175678e+00 -5.6417818828678599e-02 -4.1022966275472834e+00 
        </Neuron>
        <Neuron NSynapses="21">
          3.0929414287785889e-01 2.2791369543734228e+00 -1.0049774208904254e+00 7.3604481192649285e-02 1.2262378071559976e+00 2.7120486230037231e+00 -1.2224858080805332e+00 1.5993544026392388e+00 8.5775794933394145e-01 -3.1739184467356663e+00 -1.4957289660128950e+00 6.0364682507838241e-01 -9.7727122901040145e-02 1.2043146115209784e+00 -1.4243604887664709e+00 1.1164679711488604e-01 -1.6763967591190235e-01 -1.4203847749491594e+00 -7.7997349401370142e-01 -1.0048320675916902e+00 2.3203291784195743e+00 
        </Neuron>
        <Neuron NSynapses="21">
          8.7186998007737571e-01 1.5229818318458783e+00 5.7483980542629121e-01 2.5026004790840304e+00 4.8071265340556080e-01 1.3300180233008572e+00 3.9349742939395976e-01 -1.6609455036027854e+00 -2.4225254548620283e+00 -1.7305236051633131e+00 1.3893475483902979e+00 -6.9790316984928558e-01 6.2560272366062974e-01 1.9588302900495540e+00 1.1864295337371791e+00 1.1828464226494497e+00 9.3320764405715617e-01 2.0658984394578233e+00 2.9064906478255792e-01 8.9636036742392478e-01 2.3793371194815083e+00 
        </Neuron>
        <Neuron NSynapses="21">
          3.9183011971094345e-01 -9.5718443682668219e-01 1.4579553618053296e+00 1.5702842361956013e+00 -5.8332745011242315e-01 7.4946060395041958e-01 -1.2850430910436150e+00 5.5339573484237292e-01 -1.4030885875648285e+00 -1.1882896514906981e-01 -2.4674639580671580e+00 1.8044413501570251e+00 8.5765613631311366e-01 2.5047998479200420e+00 -8.1196561205786688e-01 1.4135227232284238e+00 -7.5641001058524293e-01 9.8554471426591073e-01 1.5525707623479477e+00 3.4298049389043128e-01 -8.6996789948669218e-01 
        </Neuron>
        <Neuron NSynapses="21">
          -9.4437725397617056e-01 1.4130727616510854e+00 1.5878493986458970e+00 -9.5880336871274208e-01 7.0075933079486052e-01 -6.3041059473388161e-01 6.4988750338785775e-02 -1.9493810056286842e+00 6.5842048338625070e-01 7.9719402699193131e-01 -8.1259024689789361e-01 5.0749410144639413e-02 1.3062711302659680e+00 -5.6297332145991841e-01 -1.9522266843380864e+00 -1.6641806227872538e-01 -1.8009661625872604e+00 1.7434361582941034e+00 1.8772689086451233e+00 -1.8839018345817038e+00 -4.3712535719650281e-01 
        </Neuron>
        <Neuron NSynapses="21">
          -5.0617647513653208e-01 -6.3942385433723592e-01 1.7259701956441347e+00 4.3845443225138320e-01 -2.6707813873126383e+00 -9.3073153440662038e-01 -1.2876002190853172e-01 -1.4542052117271769e+00 -8.4364760347748935e-01 1.9232217071793112e+00 2.1551853944931829e+00 2.6210358609958755e+00 3.6387774037417314e-01 4.5754215112838742e-01 1.5011054105393937e+00 -1.0350854234244709e+00 1.2873322170244010e+00 6.2881595078368979e-01 2.6313050136998419e+00 -8.0786843003737580e-03 -7.5791096669996216e-01 
        </Neuron>
        <Neuron NSynapses="21">
          -4.0028978899584627e-01 -1.5427784535390578e+00 1.5478046049144556e+00 8.7355121942746561e-01 -2.1333170369155456e+00 -1.9307340588010125e+00 1.2121160931532653e+00 1.1831609373762790e+00 1.2555568278337361e+00 1.4567308854105752e+00 -8.5549996747447965e-01 4.4757199632708866e-01 -1.3043709271988893e+00 -2.2401967869469286e+00 2.0673541298642317e+00 -6.3511114016878101e-01 -3.0884833924175168e+00 1.7777503668861809e+00 3.2072245971195117e+00 1.4556507710832258e+00 1.4865532255015226e-01 
        </Neuron>
        <Neuron NSynapses="21">
          1.4486960309929059e-01 -1.0133486389760460e+00 2.0692563523304131e+00 1.2493114792580016e+00 -2.4099626484287455e+00 -1.6455363310800158e-01 -2.3135196396066475e+00 8.3722257843072068e-01 -2.0863044421453480e+00 -1.5120039901430049e+00 -1.7461837150956894e+00 -1.3860872623060208e+00 -2.1817886361387462e+00 7.0970228127754320e-01 6.9824123095870372e-01 -1.6212855253310625e+00 -1.1887981224558657e+00 1.2402783015679368e+00 4.1898770023372522e-01 -1.6074879768497636e+00 -4.3267763365794742e-01 
        </Neuron>
        <Neuron NSynapses="21">
          -5.5744309183191532e-01 6.2160333951792790e-01 -1.5922654411508239e+00 -1.7655625862600555e+00 7.9545436499433053e-01 1.1295341315466237e-01 -1.0879562104792680e-01 -1.3742327738104518e+00 -6.8645088052863246e-01 -2.9455355352404671e+00 -8.0386300450332593e-01 -6.1931298230771958e-01 -2.1121806906562677e+00 7.5706686907849574e-01 -1.4608639622984154e+00 -9.8356189848120792e-02 1.1527863516658066e+00 4.5103064231641038e-01 -2.3513281781901232e-01 -1.3397051653956713e+00 2.2426087662537009e-01 
        </Neuron>
        <Neuron NSynapses="21">
          -7.7721659768724694e-01 6.1405798790434740e-01 2.2272556614964389e+00 -4.1183272565976212e+00 1.0755607135047858e+00 -1.1527190614183733e+00 -4.2503240345044246e-01 -1.6470903207301175e+00 1.7791865490572374e+00 -4.3440177462688183e-02 2.1823716237393231e+00 3.0037313112670350e+00 -4.1859639330452553e-01 3.4816220816139354e-01 -1.5766726498341097e+00 5.2671230476400599e-01 -1.4873189567341643e+00 -1.9812976432212908e+00 -1.3536374717174713e+00 -1.7439756459484899e+00 -4.6055235113442822e-01 
        </Neuron>
        <Neuron NSynapses="21">
          2.8637652557318383e-01 -1.1222780873485632e+00 -4.6251251018982081e-01 1.8675681608244754e+00 -9.1940092974237705e-02 -3.3085971659045949e-01 1.3302876226615536e+00 2.3373596985079792e+00 5.3958056612603300e-01 1.5110133060847726e+00 -2.7070508230296548e+00 1.3112042754880497e+00 -1.4666617365102830e+00 3.4361900006595658e-01 1.0319754309782767e+00 8.6343227764938835e-01 -9.7127629832683171e-01 4.2551766000876928e-02 -1.5395252491678657e-01 -1.9814919507013937e+00 1.7570390882148346e+00 
        </Neuron>
        <Neuron NSynapses="21">
          -2.4016156783875324e+00 -3.0449775037239424e+00 -5.8194974708797509e-01 -8.4981981363926096e+00 1.1076310235876314e+00 2.9317368742592258e+00 9.0454221798958034e-01 1.9659850152106586e+00 -1.9913436268644824e+00 3.4443986906653318e-01 -2.0265401108984431e+00 -3.8132502967377913e+00 -2.4342221772760988e+00 3.3721467413108608e-01 8.6917135701569870e-01 -5.0757343498919105e-01 -6.4170777730445341e-02 4.7361315172048979e+00 5.2530926763382837e+00 -1.3048114107379398e+00 -2.1332220346686990e+00 
        </Neuron>
        <Neuron NSynapses="21">
          -6.0105901815570073e-01 -6.8525560219597070e-01 3.6799034426061539e-01 -5.8115159616675993e-01 -2.0273549869039047e+00 1.3715515808561438e+00 -1.2350739426153348e+00 -2.2002797659415535e-01 1.3499185517961698e+00 -1.6550331746903102e+00 -2.1474789509661898e+00 -5.0245057551563865e-01 -2.2738587679822793e+00 9.4520863636172570e-01 1.2322564081868868e+00 6.9647983565239568e-01 1.5950785967611065e+00 1.5355896831424780e+00 -2.1203389569742037e-01 -1.5068004626088640e+00 -4.8496074021290547e-01 
        </Neuron>
        <Neuron NSynapses="21">
          -2.8093907059329104e+00 6.0163258659097174e-01 -3.9141382503256256e-01 2.9111430811721268e+00 9.8181746376691548e-01 -1.0154271941696547e+00 -2.2465431673079070e+00 2.7951496322699065e+00 -2.4177187246130866e-01 1.2063541197986044e-01 -1.0110286120673302e+00 5.6244230312628163e-01 -6.1973072614846636e-01 -3.3441067339373404e-01 8.2667384918622344e-01 -1.7661706729865709e+00 3.5189737596819493e-01 -4.1730379932807932e-01 -3.5394510330897053e+00 -1.8436106890780843e+00 6.8894140244238478e-01 
        </Neuron>
      </Layer>
      <Layer Index="2" NNeurons="22">
        <Neuron NSynapses="1">
          -1.3956400559989588e+00 
        </Neuron>
        <Neuron NSynapses="1">
          -5.6238580682861805e+00 
        </Neuron>
        <Neuron NSynapses="1">
          1.3462726586334863e+00 
        </Neuron>
        <Neuron NSynapses="1">
          3.9280815664071511e+00 
        </Neuron>
        <Neuron NSynapses="1">
          3.2663523094917517e+00 
        </Neuron>
        <Neuron NSynapses="1">
          5.4911349499929463e+00 
        </Neuron>
        <Neuron NSynapses="1">
          -2.1741380791881575e+00 
        </Neuron>
        <Neuron NSynapses="1">
          1.9040780980160847e+00 
        </Neuron>
        <Neuron NSynapses="1">
          2.4906824475245819e+00 
        </Neuron>
        <Neuron NSynapses="1">
          3.7957586771714338e+00 
        </Neuron>
        <Neuron NSynapses="1">
          -4.3239469634217791e+00 
        </Neuron>
        <Neuron NSynapses="1">
          -2.3623401638623274e+00 
        </Neuron>
        <Neuron NSynapses="1">
          -1.6567190862310810e+00 
        </Neuron>
        <Neuron NSynapses="1">
          7.1184451055933708e+00 
        </Neuron>
        <Neuron NSynapses="1">
          2.0056952136170358e+00 
        </Neuron>
        <Neuron NSynapses="1">
          6.6846021665571642e-01 
        </Neuron>
        <Neuron NSynapses="1">
          1.4503522335537828e+00 
        </Neuron>
        <Neuron NSynapses="1">
          -3.1576470574016615e+00 
        </Neuron>
        <Neuron NSynapses="1">
          -4.4046651614313008e+00 
        </Neuron>
        <Neuron NSynapses="1">
          1.2795377095615046e+00 
        </Neuron>
        <Neuron NSynapses="1">
          -3.4208138789161460e+00 
        </Neuron>
        <Neuron NSynapses="1">
          -2.9764082228683324e+00 
        </Neuron>
      </Layer>
      <Layer Index="3" NNeurons="1">
        <Neuron NSynapses="0"/>
      </Layer>
    </Layout>
  </Weights>
</MethodSetup>
